<unk>	0
<s>	0
</s>	0
,	-3.0067
s	-3.3805
:	-3.65289
.	-3.92164
d	-4.06959
▁	-4.07658
e	-4.19847
▁I	-4.20027
▁the	-4.25707
'	-4.30094
t	-4.45676
▁to	-4.50812
▁a	-4.60218
▁and	-4.66628
;	-4.698
▁of	-4.76955
i	-4.81013
a	-4.86227
r	-4.88527
▁you	-4.91403
n	-4.92511
▁my	-4.99836
er	-5.00262
▁in	-5.00588
p	-5.03654
?	-5.08577
o	-5.11937
y	-5.13788
▁be	-5.14632
ing	-5.16562
st	-5.18409
!	-5.21112
▁me	-5.21133
l	-5.22448
▁s	-5.25101
▁that	-5.30069
▁not	-5.32379
▁is	-5.32972
▁And	-5.33093
ed	-5.34003
▁for	-5.36441
▁with	-5.42438
ar	-5.46996
u	-5.47238
▁it	-5.52542
en	-5.52775
f	-5.54506
▁he	-5.54722
▁your	-5.54789
c	-5.56193
▁p	-5.62182
w	-5.62564
h	-5.62625
▁his	-5.62992
m	-5.63421
▁A	-5.63489
g	-5.67813
ly	-5.68181
▁have	-5.6911
▁f	-5.72087
re	-5.74207
▁this	-5.74635
▁c	-5.76134
ll	-5.76415
th	-5.77327
▁him	-5.80298
▁thou	-5.80878
b	-5.81602
▁so	-5.83031
le	-5.84031
al	-5.8553
▁w	-5.85982
in	-5.8881
▁as	-5.91252
or	-5.92962
k	-5.95832
▁do	-5.95961
▁The	-5.96284
ce	-5.97605
-	-5.97696
▁we	-5.98773
O	-6.0035
▁will	-6.00697
it	-6.01848
v	-6.02779
▁thy	-6.03535
▁g	-6.03832
▁but	-6.06364
▁S	-6.09105
IO	-6.09123
ch	-6.09624
▁To	-6.10726
R	-6.11953
▁B	-6.13725
▁C	-6.138
es	-6.14509
▁all	-6.15786
on	-6.16816
▁her	-6.1767
▁'	-6.22189
▁no	-6.23039
▁shall	-6.27357
▁by	-6.2841
A	-6.30414
▁our	-6.31575
▁on	-6.33417
ro	-6.33637
▁are	-6.33945
▁de	-6.36868
▁thee	-6.37758
ur	-6.37981
ve	-6.38191
at	-6.38592
▁That	-6.38628
▁P	-6.38668
▁M	-6.39767
▁what	-6.40587
▁re	-6.41409
▁b	-6.41519
ent	-6.43734
un	-6.43909
▁O	-6.44155
I	-6.4444
▁G	-6.45504
an	-6.45911
▁good	-6.4752
▁But	-6.48848
ri	-6.5012
ion	-6.5108
▁lord	-6.51681
▁T	-6.51724
ra	-6.52416
ow	-6.54423
▁What	-6.56369
et	-6.56835
▁t	-6.58404
il	-6.58996
▁was	-6.59426
▁come	-6.59462
▁from	-6.61676
N	-6.62058
om	-6.62095
est	-6.63367
▁us	-6.63382
▁For	-6.64724
▁more	-6.6492
▁love	-6.65302
▁sir	-6.65737
ry	-6.66324
▁am	-6.6648
el	-6.66706
ut	-6.66923
▁if	-6.69164
▁she	-6.69302
▁now	-6.69458
▁go	-6.70088
▁would	-6.70501
▁con	-6.70631
▁at	-6.71494
as	-6.71837
▁know	-6.71947
▁or	-6.73398
▁ha	-6.75274
▁say	-6.75356
ter	-6.7553
▁KING	-6.75667
▁them	-6.76459
▁their	-6.76927
▁man	-6.77613
▁R	-6.78993
▁My	-6.79045
▁make	-6.79067
LO	-6.79339
ck	-6.79499
▁king	-6.79757
la	-6.79861
▁here	-6.80449
S	-6.80514
▁He	-6.82854
ain	-6.83535
IUS	-6.84207
▁see	-6.84245
▁let	-6.84295
▁un	-6.85425
▁v	-6.86944
ic	-6.87128
▁they	-6.87471
▁then	-6.89556
▁la	-6.90632
▁may	-6.90915
▁o	-6.91627
▁well	-6.94295
ant	-6.94384
▁one	-6.95601
▁hath	-6.96726
▁F	-6.98043
▁You	-6.98827
▁there	-7.00613
▁like	-7.00733
ight	-7.01041
▁must	-7.01394
ate	-7.01467
ive	-7.02392
▁r	-7.02438
▁ch	-7.03128
▁an	-7.03175
▁li	-7.03559
▁No	-7.0377
ide	-7.04003
lo	-7.04101
▁were	-7.04216
▁should	-7.04353
▁As	-7.04641
ful	-7.04981
▁than	-7.05554
ET	-7.0566
am	-7.06207
ake	-7.06503
▁hear	-7.06684
▁VI	-7.06746
ig	-7.07495
NCE	-7.07586
▁father	-7.07869
ng	-7.08011
us	-7.08276
ous	-7.08453
age	-7.08645
▁upon	-7.09863
ity	-7.10016
ness	-7.10145
ure	-7.10431
▁did	-7.10667
▁L	-7.10757
▁had	-7.10835
em	-7.1169
▁sp	-7.13391
▁sh	-7.14185
▁pro	-7.15147
our	-7.16017
▁death	-7.16052
▁dis	-7.1626
▁time	-7.16353
ish	-7.16529
▁co	-7.16561
old	-7.16863
▁which	-7.16908
less	-7.17703
mo	-7.18479
▁speak	-7.18885
▁when	-7.19225
▁some	-7.19253
▁can	-7.20121
▁out	-7.2042
▁We	-7.20511
ES	-7.20917
to	-7.2106
▁how	-7.21214
▁H	-7.21638
▁up	-7.22116
▁give	-7.22231
▁DUKE	-7.2296
▁Be	-7.24494
▁hand	-7.24734
▁yet	-7.24799
▁heart	-7.24943
--	-7.2521
▁With	-7.2542
▁If	-7.25893
▁too	-7.26327
▁RICHARD	-7.26848
Y	-7.2703
US	-7.27049
▁W	-7.27096
▁lo	-7.27901
ance	-7.28143
▁Which	-7.283
ect	-7.29558
▁mine	-7.30157
▁tr	-7.31013
NT	-7.31035
▁l	-7.31449
▁In	-7.3145
ment	-7.31468
▁ne	-7.31784
▁take	-7.31859
ies	-7.32164
ise	-7.32312
▁Why	-7.33172
▁Y	-7.33174
▁son	-7.33292
ers	-7.33423
▁D	-7.33514
▁So	-7.34529
and	-7.35004
▁such	-7.35116
▁God	-7.35273
▁Of	-7.35324
▁First	-7.355
j	-7.35893
▁ba	-7.36024
▁brother	-7.37084
▁bo	-7.38552
▁blood	-7.391
▁ho	-7.39259
ot	-7.39401
▁these	-7.39447
C	-7.39658
tis	-7.39792
ER	-7.41831
for	-7.41878
▁live	-7.41962
▁E	-7.42123
▁where	-7.42414
ine	-7.4247
B	-7.42645
▁day	-7.42674
▁think	-7.42835
ill	-7.42843
▁look	-7.4289
ty	-7.42999
▁life	-7.43268
▁tell	-7.43273
▁How	-7.43444
ul	-7.43507
▁Come	-7.43693
STE	-7.43713
ABE	-7.44111
T	-7.44478
▁Who	-7.44563
▁word	-7.44564
▁e	-7.45216
▁This	-7.45405
ice	-7.45469
UCE	-7.46149
M	-7.4657
▁br	-7.47533
▁Lord	-7.48495
▁Thou	-7.49386
▁ex	-7.50819
um	-7.51269
▁QUEEN	-7.52134
▁art	-7.52449
▁honour	-7.53067
▁OF	-7.53129
ted	-7.53246
▁most	-7.5355
▁fair	-7.54008
▁much	-7.54105
UM	-7.54481
▁Where	-7.54481
▁made	-7.546
ble	-7.5532
mb	-7.55774
▁fear	-7.57414
▁Now	-7.5849
▁hast	-7.58755
he	-7.58837
▁who	-7.58953
ath	-7.59737
▁HENRY	-7.59848
▁name	-7.60351
▁great	-7.60354
▁noble	-7.61074
op	-7.61568
▁qu	-7.6181
▁never	-7.61884
ward	-7.62577
if	-7.62614
▁off	-7.64436
▁mar	-7.6453
▁di	-7.65459
ma	-7.65525
ation	-7.65617
▁men	-7.65721
▁da	-7.65866
▁Your	-7.66032
RK	-7.66116
▁call	-7.66615
▁part	-7.66748
IN	-7.67226
▁pre	-7.67312
▁true	-7.67686
▁any	-7.6785
▁cannot	-7.68755
ick	-7.6972
▁heaven	-7.69857
▁stand	-7.6988
▁Or	-7.70348
OME	-7.70567
▁PET	-7.70736
▁pray	-7.70978
▁sweet	-7.71533
ok	-7.72039
▁EDWARD	-7.72098
▁thing	-7.72741
x	-7.73151
▁again	-7.73221
▁own	-7.74437
▁doth	-7.75114
▁LUC	-7.7514
▁done	-7.75623
TH	-7.75996
▁AN	-7.76085
▁mean	-7.76227
▁been	-7.76494
▁bear	-7.76755
▁way	-7.76767
able	-7.77107
▁other	-7.77339
▁head	-7.77454
▁leave	-7.7793
▁die	-7.7846
▁When	-7.78536
▁mi	-7.78691
▁war	-7.79586
over	-7.7966
▁sc	-7.79775
▁Ha	-7.80304
MENE	-7.80319
▁nor	-7.8036
▁Edward	-7.80363
▁very	-7.80387
AP	-7.80432
▁ta	-7.80607
▁soul	-7.80809
▁world	-7.80979
▁before	-7.80992
▁night	-7.81006
V	-7.81134
▁Do	-7.81145
▁both	-7.81467
▁queen	-7.81611
,--	-7.81692
▁Let	-7.82555
II	-7.83225
UCH	-7.83487
app	-7.83595
▁Here	-7.83802
▁bu	-7.83871
▁down	-7.84142
▁dead	-7.84182
ious	-7.84228
ough	-7.8477
▁By	-7.84823
E	-7.85
tain	-7.85002
▁Ay	-7.85576
▁grace	-7.86062
UL	-7.86112
ite	-7.86308
▁myself	-7.86713
▁gentle	-7.87343
▁Than	-7.87373
ONT	-7.87828
▁arm	-7.88178
▁Then	-7.88303
EN	-7.8847
▁CORIOLANUS	-7.887
▁thus	-7.88715
im	-7.89222
▁Second	-7.89371
▁po	-7.89716
▁prince	-7.90047
NG	-7.90111
▁str	-7.90417
OLI	-7.90704
▁mother	-7.91412
▁LE	-7.92479
▁sea	-7.92674
▁house	-7.928
▁eyes	-7.92838
▁hu	-7.92937
▁im	-7.93536
INA	-7.93965
▁poor	-7.94502
▁ever	-7.94844
▁wife	-7.94915
▁long	-7.95073
▁being	-7.95207
▁daughter	-7.95623
▁old	-7.95764
▁Go	-7.9684
▁away	-7.97068
ail	-7.97568
LL	-7.97806
▁might	-7.98548
▁du	-7.98972
▁stay	-7.99275
▁Sir	-7.99314
▁EL	-7.99614
▁Un	-8.00771
▁ear	-8.00791
▁Warwick	-8.01529
▁crown	-8.01529
IC	-8.01815
D	-8.01914
▁many	-8.02053
ze	-8.02088
▁His	-8.02362
Tis	-8.03112
▁friends	-8.03428
▁show	-8.03433
▁V	-8.03446
EL	-8.03664
▁thought	-8.04026
RE	-8.04212
▁rest	-8.04333
▁nothing	-8.0466
▁On	-8.05181
▁face	-8.05427
WI	-8.05788
▁far	-8.06115
▁Romeo	-8.06638
ULI	-8.06934
▁Well	-8.06963
▁tongue	-8.06999
▁better	-8.07027
▁Nay	-8.07806
▁duke	-8.07818
▁gone	-8.07873
▁set	-8.08365
man	-8.09082
▁LADY	-8.09438
▁power	-8.09457
▁hope	-8.09477
VOL	-8.10295
▁ru	-8.10949
▁keep	-8.11098
▁news	-8.11125
ub	-8.11791
▁dear	-8.11891
mon	-8.12101
▁those	-8.12786
▁against	-8.12822
▁Citizen	-8.1364
▁little	-8.1364
▁hence	-8.13666
▁master	-8.14503
BR	-8.1487
▁hour	-8.14882
▁Not	-8.15099
▁two	-8.15384
▁kind	-8.1625
▁mis	-8.16447
▁end	-8.16691
▁put	-8.17106
▁still	-8.1717
▁GRE	-8.17315
▁There	-8.17516
▁himself	-8.18027
▁Thy	-8.18939
HA	-8.19157
TO	-8.19219
▁young	-8.19255
▁Richard	-8.19837
▁MAR	-8.19839
TA	-8.20199
▁high	-8.20754
▁peace	-8.20755
▁therefore	-8.20758
▁unto	-8.21081
▁thank	-8.21578
▁first	-8.21681
▁else	-8.21685
▁though	-8.22409
▁bid	-8.22577
▁York	-8.22617
▁could	-8.22618
▁Will	-8.22778
▁Have	-8.22879
▁till	-8.2299
NE	-8.23224
ade	-8.23229
AND	-8.23649
KE	-8.23674
▁back	-8.23842
▁earth	-8.23961
▁find	-8.24572
G	-8.25307
▁cause	-8.25473
▁thine	-8.25487
▁lady	-8.25511
▁need	-8.25794
ever	-8.26161
▁ye	-8.26351
▁home	-8.26456
▁bring	-8.26785
▁friend	-8.26958
L	-8.27077
▁husband	-8.27423
▁breath	-8.27426
▁Henry	-8.27429
H	-8.27477
▁Yet	-8.27842
▁seem	-8.27977
▁Good	-8.28428
ress	-8.28498
▁right	-8.28787
▁She	-8.28974
CK	-8.30353
▁people	-8.30424
▁mind	-8.30446
▁came	-8.30475
WAR	-8.30491
RUT	-8.31444
▁follow	-8.31444
▁Shall	-8.31444
ASTI	-8.31457
RAN	-8.32378
GE	-8.32469
▁Nurse	-8.33517
▁joy	-8.33517
▁why	-8.33542
morrow	-8.34569
▁said	-8.34572
▁none	-8.3466
▁law	-8.35042
LY	-8.36533
▁every	-8.36536
▁mu	-8.3659
▁once	-8.36594
▁place	-8.36713
▁Rome	-8.37206
MIO	-8.37267
KING	-8.37326
▁royal	-8.37796
▁shame	-8.37805
▁pass	-8.37875
▁please	-8.38896
day	-8.39777
▁eye	-8.39995
LAU	-8.40006
▁From	-8.40012
▁since	-8.40025
augh	-8.40051
▁help	-8.40067
▁light	-8.40324
▁fellow	-8.41129
▁tears	-8.41131
▁present	-8.41141
▁whose	-8.41245
▁just	-8.42266
TIS	-8.42266
▁pardon	-8.43415
▁wrong	-8.43417
GAR	-8.43417
▁King	-8.43421
▁after	-8.43437
▁under	-8.43478
▁state	-8.43485
▁Our	-8.43547
z	-8.43723
▁full	-8.43724
▁hate	-8.43829
▁boy	-8.43951
▁answer	-8.44578
▁child	-8.44583
▁worth	-8.44589
▁read	-8.44683
▁land	-8.44884
AMILL	-8.45754
▁PA	-8.46036
▁sorrow	-8.46945
CAL	-8.46947
▁kill	-8.46958
▁hold	-8.46994
LE	-8.47042
▁care	-8.47175
▁ere	-8.47909
▁banish	-8.48152
▁grave	-8.48153
ORD	-8.48153
▁thousand	-8.48183
pose	-8.48368
F	-8.4874
▁prove	-8.48882
▁whom	-8.49039
ease	-8.49345
▁KAT	-8.49369
▁fortune	-8.4937
▁cousin	-8.49374
▁Clarence	-8.50603
▁hither	-8.50603
▁about	-8.50603
▁fool	-8.50604
▁fall	-8.50671
▁weep	-8.50727
HAR	-8.50908
ush	-8.5133
▁Marcius	-8.51853
▁maid	-8.51855
▁gentleman	-8.52047
▁even	-8.53145
▁fee	-8.54366
▁comfort	-8.54401
▁gracious	-8.54401
▁Duke	-8.54401
▁grief	-8.54401
▁court	-8.54427
▁sup	-8.54483
time	-8.55649
▁woman	-8.55706
▁talk	-8.55709
▁turn	-8.57026
▁Hath	-8.5791
▁DUCHESS	-8.58349
▁sleep	-8.5835
▁wilt	-8.58375
▁woe	-8.58649
ROS	-8.59718
▁body	-8.59735
ERC	-8.59983
▁Angelo	-8.6107
▁fault	-8.6107
▁sound	-8.61116
lown	-8.62148
▁traitor	-8.62459
▁another	-8.62459
▁false	-8.62462
▁indeed	-8.62464
▁play	-8.62473
▁Provost	-8.63868
▁Would	-8.63868
▁sword	-8.63868
▁horse	-8.63871
▁Even	-8.63875
ship	-8.6437
▁Some	-8.64577
like	-8.65052
▁HORTENSI	-8.65296
▁matter	-8.65296
W	-8.66327
▁FRIAR	-8.66745
▁Upon	-8.66745
▁sovereign	-8.66745
▁knee	-8.66746
▁prison	-8.66746
▁while	-8.66746
▁three	-8.66748
▁voice	-8.66748
▁country	-8.66865
que	-8.669
▁free	-8.67129
▁welcome	-8.68216
▁swear	-8.68217
▁rather	-8.68219
▁doubt	-8.68224
▁years	-8.68239
▁send	-8.68459
▁business	-8.69709
▁Murder	-8.69709
▁truth	-8.69716
▁mad	-8.70849
▁Third	-8.71224
▁CLA	-8.71225
▁reason	-8.71227
▁shalt	-8.71241
▁grow	-8.7125
▁fire	-8.71281
▁More	-8.71285
▁act	-8.71581
▁office	-8.7163
▁command	-8.72762
▁nature	-8.72762
▁dream	-8.72763
▁Kate	-8.72764
▁common	-8.72764
▁NOR	-8.74325
PER	-8.75872
▁uncle	-8.7592
▁content	-8.75928
▁enough	-8.7593
▁proud	-8.75948
P	-8.7722
▁count	-8.77471
▁murder	-8.77525
▁spirit	-8.77525
▁strange	-8.77526
▁Did	-8.77585
▁enter	-8.77722
ENT	-8.78243
IAN	-8.79146
▁Servant	-8.79164
▁villain	-8.79165
▁foul	-8.79172
▁save	-8.79217
ngman	-8.79335
▁POMP	-8.80831
▁revenge	-8.80831
▁happy	-8.80831
▁kiss	-8.80831
▁change	-8.80832
▁mistress	-8.80832
▁sister	-8.80834
▁move	-8.80885
▁madam	-8.80931
▁saw	-8.8094
▁subject	-8.82526
▁yield	-8.82526
▁beseech	-8.82526
▁break	-8.82526
▁service	-8.8425
▁charge	-8.84251
▁Look	-8.84252
▁danger	-8.84252
▁honest	-8.84255
▁born	-8.84296
▁serve	-8.84301
▁woo	-8.84321
▁Say	-8.84322
▁England	-8.86004
▁wound	-8.86005
▁yourself	-8.86005
▁Servi	-8.86005
▁faith	-8.86005
▁curse	-8.86016
▁fie	-8.86511
K	-8.87262
▁soldier	-8.87791
▁desire	-8.87792
GON	-8.87938
▁believe	-8.89608
essenger	-8.89611
▁person	-8.89614
▁Though	-8.89615
▁children	-8.89617
▁May	-8.89664
▁Tybalt	-8.9146
▁majesty	-8.9146
▁tender	-8.91461
▁purpose	-8.91461
▁draw	-8.91461
▁Therefore	-8.91462
▁left	-8.91462
▁suit	-8.91506
OND	-8.91808
CLIFF	-8.93347
▁warrant	-8.93349
▁foot	-8.93357
▁farewell	-8.9527
▁nurse	-8.9527
▁return	-8.9527
▁report	-8.95271
▁mercy	-8.95271
▁promise	-8.95271
▁together	-8.97231
▁through	-8.97231
▁heavy	-8.97231
▁become	-8.97232
▁cap	-8.97358
▁deep	-8.97363
▁blow	-8.97707
▁Clifford	-8.99231
▁Juliet	-8.99231
▁PRINCE	-8.99231
▁remember	-8.99231
▁deserve	-8.99231
▁safe	-8.99244
▁touch	-8.99316
▁Bolingbroke	-9.01272
▁pluck	-9.01272
▁thyself	-9.01272
▁liege	-9.01272
▁learn	-9.01273
▁Tell	-9.01338
▁Should	-9.03355
▁Signior	-9.03355
▁counsel	-9.03355
▁Away	-9.03355
▁point	-9.03366
▁water	-9.03496
▁Farewell	-9.05483
▁Montague	-9.05483
▁entreat	-9.05483
▁ground	-9.05483
▁devil	-9.05488
▁friar	-9.05502
▁trust	-9.05516
▁begin	-9.05532
▁Senator	-9.07656
▁Like	-9.07657
▁general	-9.07657
▁found	-9.07657
▁straight	-9.07659
▁Master	-9.0766
▁France	-9.07661
▁Pray	-9.0767
▁slain	-9.07703
▁deliver	-9.09879
▁beauty	-9.09879
▁confess	-9.09879
▁widow	-9.09879
▁married	-9.09882
▁alone	-9.09883
▁strong	-9.09883
▁open	-9.09936
▁Claudio	-9.12151
▁enemy	-9.12152
▁brought	-9.12154
▁brave	-9.12163
▁grant	-9.1217
▁rich	-9.12227
▁writ	-9.12384
entleman	-9.14231
▁virtue	-9.14477
▁itself	-9.14478
▁wonder	-9.14478
▁spoke	-9.14541
▁Gloucester	-9.16858
▁Shepherd	-9.16858
▁strength	-9.16858
▁Against	-9.16858
▁strike	-9.16858
▁twenty	-9.16858
▁MARCIUS	-9.16858
▁Madam	-9.16858
▁harm	-9.17035
hood	-9.17194
▁hid	-9.19035
▁Camillo	-9.19297
▁marriage	-9.19298
▁field	-9.19311
▁mock	-9.19311
▁behold	-9.19313
▁course	-9.19314
▁work	-9.19317
▁half	-9.19322
▁issue	-9.19329
▁Buckingham	-9.21797
▁pleasure	-9.21797
▁flatter	-9.21797
▁wretch	-9.21797
▁Hastings	-9.21797
▁bound	-9.21815
▁plain	-9.21832
▁Norfolk	-9.24361
▁company	-9.24361
▁join	-9.24361
▁appear	-9.24362
▁attend	-9.24362
▁guilt	-9.24362
▁Thus	-9.24367
▁watch	-9.24373
▁title	-9.24374
▁lead	-9.24375
▁something	-9.24375
▁women	-9.24378
▁worse	-9.24397
▁Lucentio	-9.26993
▁knew	-9.26993
▁battle	-9.26993
▁flower	-9.26993
▁Roman	-9.26998
▁loving	-9.27003
▁Lancaster	-9.29695
▁enemies	-9.29695
▁suffer	-9.29695
▁cloud	-9.29696
▁close	-9.29702
▁Marry	-9.29706
▁stir	-9.29706
▁sense	-9.29719
▁broke	-9.29777
▁Bianca	-9.32473
▁Lady	-9.32474
▁next	-9.32477
▁patience	-9.3533
▁themselves	-9.3533
▁either	-9.3533
▁quarrel	-9.35331
▁cheek	-9.35331
▁receive	-9.35335
ERDI	-9.35355
▁Aufidius	-9.38272
▁Petruchio	-9.38272
▁Tranio	-9.38272
▁further	-9.38272
▁poison	-9.38272
▁speech	-9.38272
▁sworn	-9.38272
▁breast	-9.38273
▁piece	-9.38273
▁stone	-9.38295
twixt	-9.41302
▁JOHN	-9.41302
▁already	-9.41302
▁morning	-9.41302
▁mouth	-9.41302
▁visit	-9.41303
▁worship	-9.41304
▁request	-9.41304
▁Richmond	-9.44427
▁Speak	-9.44427
Q	-10.4513
J	-10.4514
q	-10.4515
U	-10.4516
